15 2F F7 00 FB
5B 26 1A D8 CB
7F 54 13 F2 D1
7F 7F 47 31 FC
3D 5A 60 36 23
EB 07 F4 FB 05
E9 E8 13 08 07
FF 02 F7 19 F9
FD E5 1E FF 0F
EB F2 25 FC F3
F2 CE D3 D4 DF
F1 E2 C8 C0 EF
1C EF ED 04 36
30 41 3F 4F 2C
3C 45 41 58 20
F6 FB 06 FA F4
0E FC 06 E7 09
F8 F4 E7 04 08
F9 F1 E8 04 FD
00 F1 FF F0 EB
E7 F5 05 12 14
F4 F7 F4 FD 18
17 F8 D1 C6 E0
09 17 14 F3 F3
FE 00 1E 21 FF
E6 D8 DA EE E4
13 FB E5 E0 D6
0D 10 1A 1B 0B
FF 00 0B 0D 0F
00 FE F6 F7 06
F5 EC 07 0E 0B
DA F8 19 06 EC
C1 1A 2E F4 DF
E9 2C 32 F2 E6
13 27 1A FE FE
F9 E2 D9 E5 04
E4 ED 0A 10 15
EB 00 09 10 EB
05 11 17 FB FC
12 21 0E 16 08
02 ED E0 00 26
0F FF DF EE 20
1F FE DD EE 26
17 FB D5 00 21
07 E9 F5 24 20
01 FB F7 ED DD
03 0D F3 F1 F2
FB 13 F6 EB FE
01 12 0E 00 0A
14 21 26 26 1A
0B 27 2B 17 0E
F7 EB F0 FA FF
02 E1 E0 DD E4
FE FD EC FE 03
FB FF FF 04 00
FF FF ED E0 F0
08 17 02 E8 F0
04 09 15 E7 E5
FD 15 0A F3 FC
FD 0B 0D 05 F5
09 1B FC C9 D7
EF 16 34 1B CD
E0 E8 24 2F F8
E3 EA 0D 29 02
03 F4 F8 0C FC
E7 FE F5 00 0A
F1 25 00 F5 18
F6 22 EF F3 17
0F 1B F2 03 17
03 0C 01 FF 06
0A 04 07 EE F1
FE 14 27 18 FE
E3 EA 0E 27 12
E8 E5 DD FF 09
F7 EA E8 EB EA
FC F1 09 21 0F
14 E5 DA F6 E2
24 05 DD E9 EF
18 07 0C 03 00
05 0D 06 FF 11
04 0B 03 00 F9
FE FF FD FE FB
04 F5 FD 00 FC
FA F2 02 02 F9
F6 05 05 05 FF
04 01 F8 F3 0B
F3 F9 F4 F9 FD
F3 0A 05 08 F4
FD FB FA F7 04
F4 FF 0A F9 FF
F6 FA 10 FC F7
02 0F 0B 03 05
01 06 06 FE 02
F6 FA 01 FC FD
00 0C 00 09 05
05 F2 02 F9 01
FA FB FC F5 00
0A 04 05 05 F7
0A FF 0A 04 04
04 FD FB FF F7
FE 08 06 08 FA
02 0B 00 06 01
0C 05 01 FA 0D
08 09 09 0C F7
06 FA 07 09 FF
06 0C 0B 03 00
FC 00 F7 FE 0B
0E 03 07 09 09
03 FD 04 00 0A
F9 F6 F5 F5 09
06 F9 FD F3 F8
FD FE F9 09 0A
07 00 08 05 FF
0B FA FE 01 FD
06 F6 03 00 07
02 07 00 00 F8
F4 02 01 F8 06
00 F6 0B F5 FD
FB FC 05 02 F8
FD F8 FF 03 06
05 08 F8 04 02
F7 F2 02 09 FF
FE FD 06 FA F9
05 03 09 03 00
F6 07 FE 05 0C
07 0E 02 0C FC
0A 0E FD FB 09
FD F6 08 06 F6
07 FD 02 FE 05
00 09 07 F4 0B
F3 00 00 FC 08
07 02 05 FD F7
F5 FF F5 06 FD
0B F4 FD 05 01
01 FC 07 F7 F6
03 FC 06 0D FB
F6 03 02 FA FC
08 03 08 FF 04
F5 F5 F8 00 03
03 FF F5 F6 FA
F8 EF 08 0E 0D
06 F7 F1 04 02
12 F6 ED ED 01
06 18 20 1A 15
01 1E 34 16 04
F6 E5 EB E4 F3
02 03 0C F7 EF
1B 18 10 16 0F
06 00 0C 00 19
09 05 FC ED F7
01 04 0B 0B FD
01 08 03 E4 EF
FC F3 D1 E7 F7
F4 C6 F0 02 F3
D9 E3 FA 04 F8
F7 F5 04 06 00
FA 0C 15 06 F5
14 1C F3 E6 00
FC F3 E8 08 10
F1 F1 FD 0C 06
F1 01 EA F3 08
0C FF E5 F8 FF
FF EC 00 00 FA
EB F1 00 F8 F0
05 0B 1C FF F5
F5 FB F9 F7 FD
00 05 F1 F7 0C
F0 01 03 01 F5
F6 FE 0B 00 EC
0A 05 0C FB FD
0F 2B 42 35 20
F9 FC FA F2 FB
FD F7 F2 FD ED
00 19 0A 06 F8
12 07 0E F9 00
FB F5 F9 F8 F5
F7 00 FD 02 EF
FF FB 07 ED F5
11 00 F4 FF 01
05 F0 F0 00 03
0C 06 0D EB E1
F0 11 07 01 EA
03 E4 FB 08 F1
12 F5 F7 EB F4
08 15 E9 EF 03
0A F9 F5 01 FE
F6 F5 F3 F0 FD
F2 EA 07 F1 0E
EA 00 00 EF 0A
F4 FA FF F5 FD
01 FC 14 12 16
F7 14 21 0E 0A
ED EF 0C 13 09
F1 E7 E8 FE 0F
0E 05 09 05 04
FE FD FF 05 F0
DD E4 EA F1 F7
FC 0D 06 FB 08
F8 FF 03 0B 09
F1 F7 F4 10 0D
07 0A 0B 03 0A
02 0C F8 F9 FE
01 FE 04 0A F8
00 0B 03 F4 02
FA FD 0B F8 FB
F9 06 07 00 0B
09 F4 00 05 0B
FD F4 00 03 F9
00 F5 FA FE 07
F5 F6 06 0A F6
00 0A F6 01 F8
FC 05 F9 FD 01
F3 02 0B 07 02
08 05 08 F7 00
03 F7 06 05 F8
FD F5 0C 04 09
01 F9 00 FF F6
FE FA F4 F7 FC
0A 01 F7 FA 0A
07 0B F9 06 FF
FC FC 08 0B 00
FF FB 09 F8 09
F7 03 08 FF FD
0C 09 00 F6 0A
00 09 FA FA F6
0A FC F4 08 F7
FA FE 05 05 F6
FF F6 FF F7 F6
F9 08 F8 F9 F9
04 F9 FD F5 F5
07 02 F4 06 00
02 F7 FA F5 FA
FD 08 FD 03 FC
01 00 02 F8 02
FF 03 FC FA FC
FE 08 01 F9 FA
07 02 0C FE 08
FE 0A 07 FD 06
0A FC F5 0B FE
02 FA FA 02 00
0C 01 08 FB F6
FE FE 00 F7 03
F6 F9 F7 F4 03
09 08 05 FD FF
06 FF 08 FC 05
FA 06 07 02 F4
07 0A FD F8 09
05 FF FB 08 FA
02 08 05 04 F9
F8 F4 F7 F6 06
08 F4 FF 00 F9
02 08 FC FC F4
04 FF FB 09 F6
FD 0B FB 09 F8
FE 06 01 F4 02
0B F5 FE 05 0A
05 FD FC 06 FA
F4 F7 FB FC 06
F5 FF F7 00 09
FA 05 07 FD 03
FF F5 04 06 F2 EE 07 F7 F3 07 0B 03 FC 01 0D FE 0B 0B 02 FC 06 FD F5 F8 EA 02 04 F4 F3 07 07 FC 06 0B FE FA 19 11 08 F9 18 0C DF FE 01 FC EA F4 FD FD 07 0D 04 06 06 ED 07 08 F3 FD 0A F7 F1 FC FF FF F9 00 FE F5 0C 10 FC FE 03 0A FB F1 E9 05 04 01 00 05 07 F3 FC F5 02 0D 0F F3 10 26 0B E0 FF FC 05 0B 06 05 04 F4 F8 F3 EC F1 FD F4 FE 0B 02 07 08 02 FC 0A FC 0C FA 00 F3 00 00 FB FB 01 FA FD 0D 16 FC 05 17 09 FC 08 FA F6 07 04 FA EF 03 0A 0D 06 03 FA 0E 07 05 00 08 02 10 F9 F9 0A F4 FB FE 16 F0 F5 08 01 FF FA E8 F5 01 0B 06 F6 FE 07 0C 04 F9 F7 06 FF F6 01 06 F9 F5 00 FB EE
0F 04 ED EA F8 E5 EF EE 10 F8 F8 12 FA EC FA 0A FB F7 F9 F6 FE FF FC F9 03 04 EF 04 15 12 F6 11 EC F2 12 0D F5 EE 05 1C F2 0E 1E F6 12 12 03 F4 00 00 0E 0C ED FC F5 18 FD F8 00 0E 00 10 01 F4 F6 07 26 07 07 05 03 0A FD FE 0E F5 00 05 0D F4 F1 FB 0B FD 0A FF 0D 02 13 09 0D 18 03 F7 07 04 F6 F2 E5 F3 04 FE F9 F4 06 FA FD FC F9 FA 03 00 01 06 0A 02 00 04 14 FA FC FE 00 FA FF 09 FD 02 00 16 05 F5 01 06 08 FF 02 F5 F6 F0 00 02 09 01 F8 00 F9 0D 00 F9 F4 00 F1 07 0F 03 FB 11 0C 00 F9 FF FC F0 05 F4 F3 FA FE F1 FE 03 F1 EB 15 15 00 0C 0D 02 09 FE F0 04 FD 06 F9 09 FA 09 0A 08
04 00 0D 00 13 03 0B FA E2 FC FB 1A ED FC 0A 1B 12 11 00 FA 1C 0E 05 06 FF FC 05 FE F4 02 11 0C F6 00 00 03 EC EA EF 0E 05 03 05 02 17 06 EF F7 00 F4 F2 EA 05 FF F2 06 03 24 15 17 FD 10 15 0F 06 F4 F7 08 00 F7 19 0C FE F6 FC F5 FE FE EB F7 0F 07 F4 03 08 F6 FC 0B 17 F2 06 0F 00 1B 0F 10 08 06 06 01 15 06 FD E9 04 00 FE F2 F5 FB FF 14 04 02 0C 0D 03 00 00 02 05 FB 00 ED F8 F6 F1 F9 F8 0E 19 1A EF 03 07 01 E1 F1 F1 DC FC 03 02 F5 F5 FE FB FD EF F3 06 07 00 F8 06 FF 06 00 FF F3 00 0B 11 03 FC 00 F5 EA EE ED 0C 15 08 FC 14 2C 12 FF 00 0D 00 02 FC 08 0B F4 04 06 00 06 01 07
06 01 0C F5 00 05 03 09 1C 0E 13 00 10 1D 02 FE 15 10 05 F9 FC F1 01 FD 07 FC 01 0E 16 03 01 00 ED CF EF 12 F5 F7 01 00 EC E6 F9 FA E3 E4 EC 13 00 F3 FA F8 03 03 0D 10 06 FF 01 FF 04 FF 02 06 FF 02 00 19 F2 02 EB EE 06 FC E9 00 00 06 F7 0F E9 EA 06 0E F6 00 FC EE FD F4 F5 0A 00 09 05 F9 11 0E 0C 03 12 0F FC F5 06 FF 06 07 0A FF 00 F8 07 03 0B 01 00 F9 00 01 04 08 03 02 00 0A 05 04 FC 05 10 1F E4 EC FA 0A F9 FB 0A 21 01 00 0A 07 FA F1 F0 04 00 F6 F8 ED 0B 01 00 F1 02 FA FF 01 08 07 FF FD 08 05 FB FA 02 17 10 FD F8 08 FA E6 FA F6 F1 F3 00 F5 EB 00 0A 06 10 08 13 09 EC F0
F6 02 D9 F1 01 00 10 F9 01 08 F4 02 F4 F1 F0 04 FA ED F2 E9 FB FC EF F1 00 11 08 F7 F8 FA FC 0B 06 06 19 25 04 0A E5 09 0A 00 FF 01 03 0A 1F 04 03 00 F7 F9 0D 14 EF 03 00 EE F1 04 F1 00 F7 F9 0F 0F 12 1B 09 02 03 F8 FF 02 08 FF 02 0B 11 05 0C 18 10 F1 1D 08 04 0C F5 F9 EA F2 04 E6 E0 07 F1 EC DC F0 F1 EC E2 EF 11 14 08 09 01 10 08 08 00 08 07 01 05 06 F3 FF 00 FA F8 FE FE 09 FD F5 22 1D 00 E3 0B F9 F3 F6 09 05 F6 EC FA F6 01 0B 09 0E 1F 1E 01 00 10 FE F4 F6 FF 04 F1 00 02 09 FC FD F0 F5 05 0A 0C FA 00 0D 08 FA 00 F4 FF 12 FE F8 01 F8 F9 03 02 F6 00 12 06 F0 03 FA 03 17
F0 03 FA 0C 02 03 F4 FE 18 0F 05 08 05 08 13 FF F3 02 0A 04 01 0A 08 12 08 FF 04 13 17 0F F5 02 05 18 F9 D4 F2 11 0F E7 E2 ED F2 07 F7 E4 00 FE F9 FE FF F3 FF FA F8 EB FD 02 FB F2 FA FC 0A 02 09 01 F2 CF 01 05 F1 E0 06 10 02 F7 FC F9 11 0F 00 0A 06 EC 0A 0A F2 02 06 F9 00 19 F7 11 0C FF F2 FE 12 18 F8 FB 0F 2C 0F FC 0A 02 13 07 F2 ED F7 F9 DE EA 02 06 00 06 F9 FC 17 17 FA 05 0D FB 09 F6 E8 D6 11 0D F8 03 01 08 0F 10 01 01 05 FB 01 0A 00 F2 FF 01 02 F7 F4 F7 FE 06 FD F1 F5 08 F8 03 FC F6 02 FF 04 1F 0C 00 00 07 06 FC EB F1 F8 09 08 F9 06 10 15 17 10 F0 04 06 09 00 FB F6
F6 F4 0B 1A E4 F5 11 10 E6 00 0B 09 F1 FF 0B FA E9 EA F3 FA F5 05 0D 28 F9 FC 09 06 FB 00 0D F6 17 12 19 F8 15 11 02 D2 08 13 04 FB F4 FB E7 F7 F6 01 05 08 FC 00 15 0E 07 FE 14 FE EF F3 F7 FD 14 04 06 F0 F6 05 EB F1 03 06 04 09 00 00 FF FB FA FE F7 FC 03 0D 06 08 FA 12 18 F3 FF FF 08 F3 FD EF F5 04 F6 EF 03 11 EA FE FA 00 EC F7 00 06 05 06 FA F9 00 04 FB 01 00 F7 FF 0B FC 02 FB FE 0A E9 DE F4 F7 FC E7 0D 09 FC 13 06 10 0E 02 05 FD 04 FD FC FF 06 FB FA 0D FE 08 03 0E F7 F9 FD F8 E0 E6 02 FA EA FC 00 04 EF F6 FA 00 0F 09 F7 01 09 0E 10 F9 F8 0F 07 F7 F8 00 02 FE 0A FE F4
08 0A F5 F4 F6 F1 FD 08 FB EB FA 05 01 DF F2 00 1B 1C 12 04 16 08 09 02 15 01 03 07 FB FB FC F4 F6 FE FC 0B F5 10 01 12 05 01 06 0B 0C 13 1C 0B F9 F4 F8 04 EF F8 00 02 F8 FF 0D FA FB 03 05 0A FF 05 FD 0E 05 00 1A 00 EF FC FE FC FF 13 1C F1 07 0B FE 03 F4 F9 FC 1A F8 FC F1 F0 05 F6 E8 F3 0E 0E 14 06 0B 15 0D 05 04 04 00 00 00 01 00 0B 0A FF 06 09 06 00 06 FD 06 09 00 0D 09 03 FD 07 11 07 05 F8 04 F8 04 00 FD FE E6 EF FC FB F9 FB 05 FD FF FF F5 FA 03 07 FB FF F4 08 F9 04 00 08 15 14 14 0F 00 FE F7 0E 07 F1 E9 FA EA E7 FE FC 0B 08 02 FB 0F FB F3 05 FB FE 0B FF 05 FE 05 08
FD 04 01 07 1B 1C 02 0E 01 F7 09 F3 05 13 08 EA F9 FC FC 07 F9 FE F2 EF F6 FA FA 00 EF F1 FA 00 09 08 F9 F2 F9 FE 00 F4 08 FE FF F8 1C 08 E4 F0 08 1A FA 00 07 F0 FC 00 09 09 00 F6 1B 10 F6 E9 F2 EB F2 04 00 0D ED F6 FE 11 E8 EF 00 05 EE 0B 05 F0 FA FE EF FC 15 F7 FE F4 0A 07 F1 05 15 10 08 01 FD 00 F6 F3 FF FE 08 03 FB 17 EE ED FC FB 04 FB F2 FE 02 01 F1 F1 02 FB F6 FC FB 01 03 0E 02 FD FF 1B 18 1A 0C F5 04 1A 06 0F 09 01 02 10 05 0A 09 01 F8 00 0A 00 05 01 F9 F6 0D 12 0C 06 F8 06 FB FD 14 0B 03 FD 10 FA FF 0A 0E 07 EC E6 F0 FA F9 F5 F0 00 0E F0 F0 EB 01 11 E5 F6 0D 0B
F3 FC 04 03 05 15 FA E6 0A 14 E7 E0 12 00 F9 09 F6 01 07 18 E9 F6 F6 FB F3 03 02 E6 FE 16 FF F9 16 FD EB F8 08 0A 0C 05 EE ED 07 0F ED 00 19 0C 06 21 0B 0E 07 F1 F5 F2 EC D7 F3 10 FF FB FB 0F 06 F0 ED E6 01 FA F7 1B FF FC 0B 14 02 01 19 11 F4 FC FD 04 FC 01 FF F1 03 04 F0 F4 0E E6 F4 12 F8 01 11 10 FE F1 F8 FA F5 16 12 EC 09 1F FE E8 FA F6 0F 09 FF 05 01 0E FB FD 04 00 FB 02 FD F8 E4 D5 06 12 03 05 18 05 17 FB 00 FE F6 03 F5 02 FF 03 F0 F4 03 0B FD FB 04 01 F2 03 F3 F4 0B 05 F4 FB FA 13 10 0E 08 FB 08 10 0C F3 FE 06 F5 FD FB EA E5 FF FE 0A F9 FF FF 0F E9 F6 06 07 05 FD